FB03
FD4A
0117
FDE4
0108
01BB
FE08
00E4
003B
0145
FE45
FBE9
FEA1
044F
FDBB
FB9C
02CF
FE5F
00CA
FE03
02D4
FE17
FE5F
FFEE
0069
FCDF
02A1
01FD
0431
FFDF
01A1
FEBB
FF54
0388
FE9C
00F8
FFE4
FBAC
0283
FF2C
FF36
0378
FBB1
000D
0192
017D
014F
FCA1
FD9C
003B
FE12
FFFB
FB83
04AC
FEEE
01BB
046E
00AC
FC2C
FCE4
00F8
0492
00CA
046E
FF1C
FDBB
01CA
01EE
03D4
FD5F
009C
FFDF
FB64
FFFB
FC08
FB5F
FBB1
0069
00E4
044F
03E4
FD5F
FD4F
FDAC
FEB1
0397
FB9C
FDC5
FFE4
FEB1
FEEE
FD4F
02D4
0103
03BB
04AC
0097
FE83
02D4
0269
FBCA
FB83
FF64
0312
FC2C
009C
FF64
FEF8
000D
FBCF
FC08
FBCA
FB9C
04DF
0164
0021
FF08
03E4
FCEE
FF69
03E4
02B1
0492
FD4A
03F8
021C
01CF
04CA
0464
FB83
FEE9
FCEE
FF92
0164
FBCF
0145
02C5
FE17
FDC5
01F8
01A1
FC1C
0192
FFEE
FD7D
FE83
024A
FC2C
FB9C
047D
0254
0069
FE5F
015F
FD5F
0312
FEB1
FFA1
0069
03CA
04DF
0164
FDC5
0008
0245
FBFD
0378
0031
0069
FE17
0269
FFF8
FD97
0283
FBFD
03D4
04FD
009C
FC36
FD5F
0012
FB54
FE03
0264
FFA1
FFEE
FCEE
0121
FC45
04A1
FC2C
FFD4
FBFD
004F
FEEE
FE83
01BB
0431
FF92
0108
034F
0021
02B1
0192
FF45
FF97
FE9C
FC36
FFCF
FC2C
FD9C
01FD
01CF
FD2C
FC83
00F8
04E9
0269
0031
03D4
03E4
023B
FC2C
0021
FCEE
FE36
FF2C
034F
04DF
014F
FE45
FF1C
0145
0454
03CA
005F
049C
FD4A
FB64
FFC5
0088
00AC
0264
FF64
017D
FFD4
FD6E
FCB1
01CA
034F
FEFD
01FD
03F8
00CA
FF78
03F8
FCB1
00CA
FF64
FB64
FC1C
FF08
0254
FBB1
034F
FCB1
021C
017D
FE12
FD7D
FD12
FE54
003B
FD4F
FE31
001C
04DF
FFA1
004A
04E9
0464
FEE9
FE6E
FF92
FB83
003B
03CA
04AC
FEF8
FE17
0192
01FD
006E
FE9C
0097
FB36
FFF8
01F8
FE6E
035F
034F
FF92
0417
0121
FB92
FFB6
FC08
035F
FC1C
0454
0492
FEF8
FBB1
FE5F
FF36
FEE9
FE36
FF2C
FF45
031C
0021
FB03
FCE4
FBCF
FFCF
023B
FF54
00AC
024A
01CF
FCDF
FEDF
FDBB
04E9
FEBB
FFDF
FF1C
FB17
0464
02B6
FF08
024A
0069
0005
0005
0021
FE36
00BB
00E4
FEF8
04E9
FEBB
FD7D
035F
FFFB
FEDF
0292
FC45
001C
FEF8
0078
FD4A
0121
FE54
01A1
FC54
0097
0254
035F
FB21
FC36
FC83
01CF
FE83
009C
0097
04A1
0321
021C
FB03
01EE
FC88
FC88
0464
FE83
02B6
035F
0397
0121
024A
FD4F
02D4
0021
02D4
FFCF
FC36
00CA
FEF8
FF92
0108
000D
FD5F
0192
FBCA
00CA
01E9
02EE
006E
FC69
0117
FF69
0292
032C
04A1
FE17
FDE4
0264
FFA1
02B6
FD5F
FE5F
FF45
0088
01FD
FB21
FD3B
005F
01E9
0388
0264
FC88
FB5F
FC78
FFE4
FB03
FEFD
0245
03AC
FEB1
03E4
01F8
0283
01AC
0397
FBCA
0417
001C
FD7D
FF69
02A1
000D
001C
FDBB
FDE4
FB5F
03F8
0117
004A
01FD
001C
FD2C
FE5F
FD6E
0417
FC54
023B
FFB6
02B6
FE9C
01F8
0283
0464
03BB
FDE4
FF4A
FB92
037D
FDB6
0321
03AC
FFCF
021C
FE6E
0121
02C5
0312
01BB
FD12
047D
01F8
FFC5
0069
FCDF
FE36
FEBB
02C5
003B
FF88
FFEE
044F
FB5F
FE5F
FBE9
FC54
FB9C
FE17
FEDF
0397
024A
00D4
01F8
FF69
02B1
00F8
04A1
FFA1
01FD
0097
FB21
0103
FD2C
0403
FD31
FC69
01EE
0283
FE17
0403
FFFB
003B
FB21
04E9
0454
FCA1
01FD
FE17
01E9
FEFD
0078
FEDF
FE7D
0245
0378
FB83
04CA
FDC5
00D4
FE83
FF78
FFF8
02CF
FF08
0069
FD31
02B6
FF97
FE5F
FF64
FB36
0431
FFCF
FFA1
03E4
023B
FB21
0464
01FD
FF69
001C
FEB1
0117
FB17
0403
FFEE
FD3B
01CF
FF08
0417
03AC
02CF
FFEE
00B6
0121
FFB6
FDBB
0078
02D4
FE5F
FF1C
0492
FE08
0245
FB64
FDBB
FEDF
0078
014F
FE36
FD12
FEEE
0454
00B6
00BB
0436
FE31
004F
031C
0492
003B
FF2C
01BB
FB64
00BB
02B6
0121
FD6E
0397
02B6
FEFD
01AC
FB03
FCB1
001C
0264
FD9C
0283
01F8
0097
FF78
01F8
0021
0492
0021
FDBB
FBCA
FB54
02D4
00E4
FEE9
FDE4
01CF
003B
0378
003B
03F8
FD4F
0192
0436
0454
0312
015F
03CA
FCD4
FE08
04DF
FEE9
0492
FD3B
FC36
FE45
01AC
00F8
FFDF
04A1
0183
0164
FDB6
014F
FE45
FBCF
0321
FFDF
FBAC
0145
FDE4
0292
FDB6
01A1
FD7D
FFA1
FDC5
FB64
FC88
FBFD
0097
FF2C
FC2C
FFE4
FBB1
0492
FB21
0145
034F
0312
03CA
FF92
04FD
0008
FEBB
FF78
FB21
FB36
FBAC
FFA1
0292
FC2C
002C
0254
01A1
035F
FE17
FD2C
FEB1
01CF
FE6E
FD7D
FFE4
FC36
0164
FCA1
FD5F
FFA1
FEBB
FB9C
FC45
FFFB
00CA
FF1C
FE7D
FFC5
FFDF
FE36
00F8
FB64
015F
FE54
0254
0403
FC2C
0088
FB54
0454
FD31
FC83
FC69
FF69
FC83
0464
FD3B
FC1C
049C
015F
0031
0112
0112
000D
FFF8
FF78
FE03
047D
0108
FFB1
FF69
FF1C
FE03
FF45
004F
024A
02A1
FD31
003B
FEEE
0069
0397
FD2C
FDBB
FFA1
04FD
0269
01A1
FC1C
FD7D
046E
FCA1
FE45
047D
0097
01F8
FB83
00E4
FCEE
FB17
01F8
FF4A
03BB
0403
FBCF
0121
FBAC
00BB
02EE
FF36
FC36
02EE
FEEE
01F8
0112
01AC
03CA
FEE9
FFC5
0454
FBE9
FFE4
FB64
FBAC
FFEE
01EE
04E9
0088
FDBB
FE6E
0245
FD12
FB92
0492
02C5
0378
FF4A
047D
FC45
FFC5
FF4A
FBCF
FDAC
0021
0164
FBAC
FC54
02B6
0388
0492
049C
FE54
021C
00E4
02D4
FC83
FCEE
FDBB
0012
FD4F
015F
FC78
FB9C
FC45
00B6
FE08
001C
0012
024A
FCB1
FBE9
0397
017D
FE03
FF36
FFFB
04FD
FDAC
FCA1
FEEE
001C
FE5F
0436
FC1C
FE5F
0312
FC36
015F
0264
FD2C
FC45
0108
FF92
FB17
FD9C
FF08
0431
FFB6
046E
021C
04A1
FBAC
FCA1
04CA
04E9
FD4F
014F
FDAC
0264
03BB
035F
FBAC
FEE9
FB64
FD31
0283
FE12
0454
FC2C
FF54
FD5F
00E4
FFE4
FF1C
FC45
FF36
02A1
FC2C
0388
0269
0164
031C
00E4
FF64
04E9
0183
FC54
00B6
FCD4
FF92
FBCF
FF36
0397
FB36
0378
02B6
FFA1
009C
00E4
0164
FBCA
00AC
FD97
FFF3
FBAC
024A
0088
00D4
0112
04DF
04FD
0431
FBFD
0031
FB21
044F
FF64
FB21
FDB6
FBB1
FFF8
02B6
FDE4
FC78
FBE9
FB5F
FD2C
FE45
005F
001C
01CF
01BB
01CA
03BB
FB36
FD6E
FFC5
0254
034F
0021
FB36
FF36
FFB6
006E
FB5F
0108
FC08
04DF
FD6E
015F
FE9C
0183
FB64
FCDF
0192
0269
FB5F
FD6E
FE08
FFB6
0264
0097
FEF8
FD4F
FC69
FD2C
024A
0436
FF88
FE03
FC54
04DF
04AC
03F8
024A
01EE
015F
014F
FE03
FE7D
004A
FD4F