FD6E
FFFB
035F
0254
FFEE
FFE4
FF92
004F
024A
01F8
0008
FCA1
FD12
FE08
0021
0464
FC45
FF1C
FFA1
FD4F
FEA1
02D4
FB21
0388
0269
FEEE
0097
FF69
FE45
01CA
FE12
04A1
FCEE
FC2C
021C
0192
0103
FE12
00E4
031C
FD3B
FEFD
0121
0145
FCE4
FE54
FD6E
005F
FF69
0254
02B6
FB5F
FD12
035F
FBFD
FC83
FD3B
003B
FC45
FD6E
FD7D
FC45
0312
FFEE
FDAC
00CA
037D
0264
02CF
FE6E
FC78
0021
0292
0103
02A1
FFE4
003B
031C
02B6
0283
01AC
FCB1
FB6E
FBB1
FD4F
02B6
FDB6
FE36
FCEE
FC45
0021
FE45
017D
00B6
FB9C
0192
FE31
FCEE
FBCF
01EE
FC1C
02D4
04AC
FE9C
0436
FFEE
021C
FEF8
0145
01A1
FC1C
03BB
FC2C
FC88
FCEE
00AC
FF92
FEBB
FBAC
0103
0388
01F8
FB36
FCB1
FFF3
02C5
FE03
FB6E
